000E 000D 0030 FFDE FFD7 0008 0043 0008 FFB6 0003 000D FFCC 002C FFEA FFE7 FFAE 0005 001E 0010 FFF7 FFC2 FFF2 0024 0018 0013 FFC8 FFE9 001D 0044 FFF2 FFDB 0035 FFD7 000F FFD2 0012 FFB2 0044 0001 FFF2 FFD2 FFC9 FFEE 0011 0016 FFE0 FFF4 FFF0 FFDF FFE0 0001 0013 FFD7 FFFD 0016 001F FFF4 002D FFEC 0019 FFC0 FFCE 0047 001A FFC9 0002 0027 FFF3 FFEA 001F 0030 0010 FFCF 001D FFC9 0009 0024 FFF0 0015 0008 FFF9 FFEB 001F FFF1 FFDC 0022 0022 FFD0 FFCC 004C 000C 002F FFC9 003C FFAC 0036 000A FFFF FFF3 0016 FFBD FFF0 FFD6 FFCA FFD3 0006 FFD8 FFCD 001E 000A FFFD 0045 0022 FFF2 002E 0052 0023 0001 0012 004D FFDF 000D 003A 0028 0012 FFE3 0011 001E FFD3 FFEB 0043 FFE0 FFC9 FFC5 FFEF 000A FFDB FFB0 FFCD 0010 FFE6 0000 0023 FFEA FFE8 FFF1 000D 000D 000F 0003 002A 0003 0019 001F 0019 FFDE FFF3 0006 000B 0010 FFEC 0027 FFE1 FFE7 FFCE FFCF 0008 FFFB FFFD 002F FFF9 FFD9 FFD1 FFFD FFE1 FFEE 002B 001F FFE3 FFFB FFDD 002F FFF4 0009 FFEA FFEF 002B 0022 0004 0025 0013 FFEE FFD6 0043 0003 FFD4 FFD4 FFBA 002A FFEA FFED FFEB FFE1 0034 FFC5 000F FFDD FFF8 001B FFB8 0009 003C 0008 FFE7 001B FFC6 FFE0 FFFE 0008 000C FFF1 0007 000A FFFA FFEF 0004 001A 0028 FFFA FFE8 FFE8 0004 FFFA 000D 0037 0003 0021 0024 003F 0036 0002 FFE3 0016 000A 0022 FFEB 002A 0002 003D 0003 FFF4 006A FFE3 FFFA 0031 0032
FFE1 FFC6 FFD0 001F FFFA FFD7 FFCD 0003 0013 FFE5 FFEA FFF1 0029 FFE6 FFED 0010 000B FFF1 0004 FFED 001D FFD9 FFE6 FFE5 FFF8 002D 002F 002A 0032 003D 0014 FFE0 FFDF 0023 FFDD 000F FFEF 0001 000E FFF4 FFCE FFFA FFFC FFDD 000E FFED 0030 0019 FFF7 0032 FFE6 0006 FFC0 FFF3 002F FFFC FFCE 0047 001C 0006 FFFA 0030 FFE4 0043 0031 FFC1 0012 000C FFFC 0003 FFF2 FFEA 0000 FFD4 FFFA 000D 0004 0016 FFB5 0046 0008 002F 0004 FFDF FFE8 0008 FFEE FFD8 001D 002F 0033 FFF2 FFFB FFD1 0012 FFF3 0004 001C FFDA FFF7 FFF8 0034 0010 FFC1 FFEC 0029 0004 FFE7 001C 0016 0035 FFF4 FFF7 FFEF 0009 0026 0009 FFF6 0021 FFF8 000E 0015 FFC9 FFD4 FFD0 FFFD FFE1 FFD4 FFE2 001B 001E 0024 003D 002D FFD5 001E 001A FFEE 0026 FFBB 0024 0026 FFC9 FFF5 000C 0043 FFEB 0016 0030 000B 003C FFE9 0030 0035 FFF6 003D 001A FFCC 0038 0000 FFCE 003B 000A 0028 0003 0021 FFED FFDB FFE6 FFB3 0015 FFEA 0023 FFC3 FFE6 FFCE FFFB FFDC 0034 FFF3 FFE4 FFEF FFD9 0027 0039 0015 FFE5 FFD7 FFF7 FFF0 FFBD 002B 001A 0004 0013 FFFB FFDF 0010 002E FFD7 FFE1 0015 0003 000E FFE0 FFDE 0034 0023 001D 0020 002E 000E 000F 000C FFEB 0032 0018 FFDC 0002 FFF8 FFDB FFF7 0032 0016 FFE1 0000 FFCC 004C 0027 FFBA 0018 FFEB FFF3 FFFD 0038 FFA6 FFD9 0008 001E FFE1 FFC4 FFE1 003E FFCF FFE9 001D 002F FFDD FFEA 0013 FFEA FFF3 FFE4 0019 000D FFCE
0036 0023 0037 001D 001D 0024 0042 0058 001B FFC0 0008 0033 FFBA 002D FFF7 FFF0 FFF1 FFAF FFFF 000E FFEC FFE6 FFE2 FFE2 0018 0021 FFEE 001B FFCF 0012 000D 0006 000C 0019 FFDB 002B FFFB 0028 004A 0020 FFD8 FFAE 000F FFCC 000F FFC6 0007 FFEC 0028 0007 0015 001B FFFD 001F 000F FFBF 0008 001F FFC5 FFE5 FFF3 0002 000D 0027 FFB9 0006 FFDA 000F 003F 0008 FFE8 0000 0002 000A 001B FFDA FFFC FFC3 FFD1 002F 0001 002A FFF6 FFAF FFE7 FFE4 FFFE 003B FFCF FFD6 FFDC 0010 000C FFF5 0013 0022 003B FFAE FFC9 001F FFF8 0027 FFE6 000A 0018 FFBA FFFA FFE5 FFDF 0038 FFE8 FFEF 0035 FFFF 0025 0012 0023 0032 0036 FFE9 000F 0010 FFEA FFF3 000C 0009 0047 0018 FFE1 FFDC FFD1 FFED FFE5 001D 0000 FFF7 FFFF 0032 0028 0035 0001 003A FFF2 0038 FFE8 FFEE FFD2 0039 002C 000E FFCF 0013 0027 0024 FFFA FFE1 002B 002E 002E 0017 FFBB FFE4 FFBB FFED 0015 FFD5 FFE0 FFFD FFEA 004F FFE3 002B 0045 0033 0031 FFEC FFDB FFFB FFD8 FFCC FFED 0030 FFD9 FFCE FFF6 FFE1 0030 0015 FFE0 0003 0001 0033 0015 0033 0022 0020 0035 FFE0 FFCC 000F 0006 FFB7 002D 0005 0008 FFE2 0014 FFD8 0017 FFE7 0001 0018 0046 FFD8 0019 FFC4 FFFA 0030 FFFF FFE6 001B FFC7 000D 0003 FFFB 0002 0035 FFD5 FFFD 001C 0024 003F 0016 0037 FFD4 0007 FFFB FFEB 0024 0015 FFF9 FFF1 0025 FFF3 0003 002F FFC2 002D FFD3 0015 0035 FFF6 FFD7 000C 0021 FFF7
0032 0021 0033 000E 0008 0025 0013 FFCF FFF9 000D 0013 001C 0002 FFDB FFD1 FFDD FFF1 0017 001B FFE3 0007 FFCD FFF9 FFD2 0034 FFEC 004A 0009 FFE0 FFF6 000E 0013 0019 0000 0034 FFDD 0001 0018 FFD2 0000 002C 003C FFF3 0016 000B 0008 FFF6 0024 0027 FFF0 0012 001D 001D FFF3 001B 0004 FFF0 0014 001D 0019 0040 0022 FFB3 FFF4 0031 FFD6 0007 001D FFEB 0020 0029 0055 0010 FFE0 0017 FFCE FFE2 001B 0012 FFB3 003B 001B 000B 0026 0001 0037 FFDB 0010 0012 FFED 0004 FFF0 0018 0023 002F FFBD FFDD 0014 FFFB 000B FFED FFF4 0008 002F 0016 0006 FFE8 0019 0026 0005 0013 001F 0003 0035 0014 0008 000F FFD8 FFF5 FFE1 FFE3 002C 0044 0013 FFF5 0028 0003 FFD8 002F FFFB FFC8 001E FFDB 0028 0028 FFEB FFDB 0032 FFEF 004D 0031 0006 FFE7 FFE8 FFF6 FFFD 001B 002A FFF3 FFF6 FFF0 004D 0002 0012 0039 FFFB 0029 FFD4 FFCA FFEF 0017 FFB6 0019 0034 FFFC FFFF FFF3 FFFF 0001 FFEA FFD6 0031 001F 0002 001F 001B FFD9 0005 FFCE 002B 001E FFED 0026 FFE1 FFCE 0026 000B FFE6 0002 FFB0 FFF3 FFC3 002E 000F 0033 FFFE 003F 0036 001C 0015 001B 0029 0005 FFD9 002D FFE9 0036 FFCD FFF6 0009 0026 0007 FFF3 0008 FFE1 FFEB 0009 001D 002C 0039 FFFF 0005 FFDF 0011 FFC9 FFDD FFD8 FFE8 FFDE FFD9 0023 0009 0024 000A FFF9 0008 0021 FFD2 FFD3 001B 0036 0041 FFE7 0006 0007 0027 0014 001B FFD6 0037 FFEE 0014 0024 FFDA 0014 FFD9
FFF7 FFEE FFB9 0000 FFE5 FFF1 FFFC 0008 0020 002D FFF3 FFFB FFC8 0030 FFD9 0016 FFEB FFF7 FFDB FFE9 FFD7 000B 0027 0027 FFC3 001A FFDA 0005 0019 0031 0025 001D FFFC 0017 FFFA FFEF 0014 0001 0012 0004 001E 0000 FFEA 0042 FFD9 0005 FFD2 0011 FFEF FFFE 0006 FFAE 0034 001A FFF7 0006 FFFA 000E 001A 002C FFEB FFCD FFEE FFE9 003E 0033 001D FFE8 0011 FFE8 001A FFB9 0027 FFE9 0004 0054 FFD3 FFFC 0002 0019 FFF4 FFDC FFF0 0009 0043 FFA6 0006 0018 FFDF FFE4 FFED 002E 0032 001B FFF9 0011 0005 0024 FFF4 FFD4 FFE9 0017 002F FFF1 001A 0008 003C FFE3 FFF5 FFD0 000E FFDC FFCD 001C FFB3 FFD7 0004 0024 FFF2 0014 FFE4 FFF8 FFEC FFFC FFFA 0001 FFEB 000C FFFC 001B 000C FFCF 0035 0005 FFFF FFE3 0016 0001 FFDB 0005 0014 FFBE 0007 FFC6 FFE3 0008 0020 FFEA FFFF 0041 FFDD FFED 0010 0000 002A FFEA FFFF FFE7 0005 FFCB 002C 000B 001A FFD8 0039 FFFA FFE3 0043 0035 001F 002F FFCE FFFB FFDF FFD8 FFF2 001F 0010 FFCD 001B 0034 001B 0003 0020 002B FFD5 FFBB FFF6 FFD5 FFFC 0047 FFEE FFFC 002A FFF0 FFF8 FFEE 0005 FFCE 000B 0040 0018 0032 000F FFEE FFFA FFF8 001C FFB7 0007 0021 FFF9 0006 0003 001B 000C FFED FFBB FFE5 FFE4 FFBA FFDE 004A FFCF 0045 0011 001C FFFE FFD6 0008 FFDB FFEE 0037 FFE8 FFE2 0035 FFAA 0018 002B FFDA 0007 0008 FFE5 0025 0034 FFE5 0009 FFD4 0012 0006 FFC9 FFC1 0012 002D 0005 FFE3
FFEC FFFA FFF2 FFC0 FFD8 0001 FFE2 0026 0009 FFDB FFE0 0013 FFFE FFC8 000B FFE1 FFDC FFF8 002B 001F FFFB 0012 FFE6 0028 0013 FFE3 FFE9 FFEE 0006 FFD6 002D FFB8 002D FFE1 003D FFC3 0028 FFEC FFF2 000E FFDA FFFE 0014 FFFC FFFB 0012 0034 001F FFE3 FFD3 0015 0003 FFFE FFDB FFB1 FFD3 FFC2 FFFE FFE4 FFF4 003E 0013 FFE9 FFE6 000A FFFD FFC9 FFAB FFD1 001D 0038 0020 FFCC 0001 003B FFED 0034 FFED FFE2 FFFE 0056 FFD5 FFDD 0009 0002 FFFE FFC6 FFE0 FFE4 004D FFEF FFF5 0024 FFDB 0016 FFDE FFD3 000E 0041 000A 001D FFBB FFF1 0018 0000 FFE1 003A FFF2 001F 0001 FFD2 FFFC FFED FFCB FFFF FFED FFB2 0016 FFDC FFCB FFE5 FFF5 0038 FFEF 001D FFE8 0027 FFEC 001C FFEA FFC0 0010 002A FFE3 FFD2 000A 0003 0024 FFDA FFEA FFAE 0021 0006 002C 001F FFCA 0013 FFE2 FFDA 0014 FFFC 002F FFC3 FFF1 FFC4 0002 FFC4 FFEE 0018 0022 0010 001C 000C FFEC FFFC 0016 0008 FFE2 0036 000A FFFA 0000 FFE9 FFEF FFF8 0029 FFDE 002F 0007 0022 0037 FFD9 FFF7 0016 FFFB FFF1 FFFE 0029 0039 FFFE 000A FFFC FFC2 FFD5 000C 001B FFED 001F 0047 0035 FFC5 0010 FFC2 0028 0022 0009 0020 0017 001B FFFA FFE2 FFAA FFF5 FFF6 0022 FFF9 FFC7 FFF7 FFCC FFE1 0019 001E FFDA 0052 FFCA FFC6 FFEF 0016 FFEE 001C FFD1 FFD4 FFBE FFD2 0001 0014 0026 0006 FFE4 FFCF FFFB 0022 FFFF FFF4 0003 FFE3 FFFD FFD8 FFE0 FFEC 0004 000A FFEE FFEF FFDC FFFB
FFCB FFDB FFC5 FFC6 FFC6 0003 FFFF FFDC 0018 001E 0035 0018 FFFC 0000 FFD2 001A FFD6 0028 0035 003A 0010 002C 003C 0036 FFEA FFE9 FFCC FFD0 FFEC 002D 0013 002F 002B FFED FFBF 001A FFDC FFD9 FFF5 FFD0 FFD7 0024 FFD8 FFF9 003E FFD1 0029 0004 0030 0007 FFC0 FFE4 0015 FFBF FFD2 002F 001F 0023 003A 000B 001C FFFD 001E 0031 FFC2 0031 0018 FFF5 FFDD 0005 0021 0006 FFE6 002A FFF3 FFE5 FFDF 0030 0044 0000 FFF5 FFDC 004D 0005 0021 0004 FFF8 FFF1 FFEF 000E FFE9 FFD0 FFDC 0010 0022 FFEF 0025 FFF5 001A FFDE FFCD FFE3 FFBF 0026 FFEC 0010 FFBD 0037 FFFC FFAE FFF9 FFF2 FFEB FFEB 000E FFCB 0026 000A 002D 0029 0021 0027 FFEE FFEB FFDC 0049 FFE4 0010 FFF2 FFCA 0018 0022 0013 002F FFE5 0000 FFDE FFDE 0031 FFCA FFBA FFF4 0033 0016 FFD7 0011 FFDC FFC3 FFDC FFD5 000B FFEF 0005 0031 FFEC FFF0 FFD4 0036 0002 FFC1 0028 FFFB FFDE 0024 001B FFF1 FFFA FFB6 FFC4 0014 0018 0034 FFCF FFFB 0004 FFD8 FFDF FFBB FFFB FFF8 FFE1 FFEC FFE9 001B 0034 FFF1 FFF9 0038 FFFF 0035 0009 FFF5 000E 000C FFE4 FFDC FFE2 FFE3 FFEB 002F FFF3 FFDC FFE6 0026 000C 0031 FFF6 FFF5 000E 0014 0005 FFE0 0034 FFD2 FFDB 002B 0026 000A FFC7 FFE5 0031 0021 0016 001C FFFA FFF9 0021 0023 0040 FFD5 FFE3 0024 FFF0 FFE3 FFFF FFEA FFCD FFF0 000E FFF1 FFF0 FFEF FFDF FFD0 FFD4 FFB2 0007 0061 0031 FFD7 FFE6 0003 001F 0034 0033 FFF3
FFF1 FFF3 002B 001B 0028 0030 FFD5 FFF0 FFDC FFFD FFB7 FFCD FFFA 0010 FFFA 001B FFDF FFF0 FFE5 001D FFEA 0028 FFEB FFBE 0023 FFE9 0026 001B 000B FFCC FFFF FFB7 FFBE 003D FFE8 FFE8 FFE6 FFF1 FFDA 001E 003C 000B FFF2 FFC6 000E 0006 FFEC FFC8 FFEF 002D 0020 0033 FFE0 0021 0012 FFFE 001B FFA6 FFD4 FFD5 FFD7 0031 0003 000E 0029 FFF1 0011 0017 0026 FFED FFFD FFCD 0001 FFC1 FFCC 0006 FFFA 0019 000F 0010 FFD6 0015 FFD1 FFD7 0005 0010 0031 0035 003D FFC5 FFDB FFCC 0018 FFEE FFFF 002A FFD9 0031 001B FFC1 FFFB FFE2 0043 FFFD 0012 004D 003B 002B 003B 003D 0009 FFFD 000A FFE0 000E 000E FFC2 FFD4 FFE2 0035 FFF1 FFF4 FFEE 0013 0008 FFE7 FFFB 0014 003B 0048 FFFF 0038 0008 FFF1 001E FFBF 0017 FFDF FFF4 FFF4 0004 FFE8 0031 FFF2 0013 0001 FFED 0019 FFF5 0035 002C FFFF FFF1 FFD5 0008 FFE4 0003 0022 FFE1 FFD5 0031 0012 FFE0 0036 0019 FFCA 0002 001D FFC2 FFED FFFC FFFF 0037 0003 FFE1 0002 000E FFF4 0008 FFBF FFCC FFEF 0039 FFFC FFDF FFFE 0002 FFE8 FFE2 0019 FFE0 0001 FFEA FFDA 0027 001A 0004 FFFD FFC1 FFE5 FFED 001D FFF9 FFBC 0029 FFD3 FFDB 0004 FFE0 FFE4 000F 002E 0019 0049 FFEE 0022 FFED 002B FFE1 FFD7 0006 0019 FFEA 000B 0019 0037 FFCB 0014 FFF2 0035 FFF6 0014 FFD2 0039 FFB1 FFC2 0017 0033 FFEE FFF8 FFDE FFCC 0039 FFFE FFEA 000C 001F FFF7 0022 FFEE FFFE FFE4 001A FFE3 0010 0033
FFEC 0028 FFE4 0021 000A FFDD 0018 FFE8 0018 001A 0029 0034 FFF8 FFE9 0045 0017 001B 001B FFC9 0005 FFDA 000A 0039 0017 FFFD 0017 FFDF FFE9 FFE8 FFD9 0001 0023 FFF8 FFFD 0019 0019 FFE0 FFC6 0021 FFFA 0047 0005 0042 0035 002C 003A FFBE 0035 FFEC 0003 0014 000A FFE9 0005 0011 FFD5 0026 FFED 0005 0011 FFFC 0014 0031 FFD6 FFBF FFF3 FFFC 003D 000F 0012 FFEB 0007 002E 0027 FFFA 001B 002F FFD1 0016 FFE3 FFD4 FFE5 001F 003E 0003 0007 0014 FFE5 0022 FFE8 0022 FFEA FFEE 0008 0004 FFD4 0010 FFC5 001D 0065 0029 0015 0012 0018 001C FFDC FFE5 FFDA FFD5 000E FFE4 FFD0 FFE9 0002 0016 001E 0019 FFD1 0006 FFDF 0011 FFE6 FFED 0018 002F FFE2 0027 FFC7 0016 002B FFFD FFCD 000B FFE0 0006 0049 0026 FFEA FFF2 000B 0014 0023 000F FFFF FFCD FFF4 FFDE FFC8 FFDB FFBD FFE7 FFD7 000A FFF9 FFD9 0050 0009 001D 000A 0034 FFE9 FFF2 002E FFDE FF9F 004B 0016 FFFF 0004 FFFB 0007 FFFC 0003 FFFA 0013 0026 000A 0009 000E 0015 001C FFF1 FFCD FFBB FFD8 FFE6 0018 FFD7 FFEC 0039 FFCA FFFB 0027 FFD5 FFB8 001F 002F FFFF FFFE 0018 001B 000F 0036 000F FFE7 003B FFEC FFDF 0000 FFE1 FFC7 001D FF9C 0022 FFE9 FFFF 002F FFD7 0031 0030 0011 0024 FFF2 FFCF 0018 FFD8 0008 FFDB 0030 0010 FFE9 FFF3 0005 FFC7 FFFD FFEF FFE2 FFE9 0010 0017 0000 0001 FFF8 0023 FFD3 000B FFC7 0011 FFFB FFF5 0005 FFDB 0005 0016 FFDF FFEB
0013 0010 FFFB 000F 0031 FFC5 FFFC FFE2 FFEE FFED FFF8 FFE8 0004 0001 003E 0025 003A 0018 FFF9 FFCF 0052 0012 FFEE 0000 FFFD FFF0 FFCD 0011 002C FFEF FFAA FFF5 0018 FFB0 FFF9 0016 0050 FFDA 000F FFCC 0011 001F 000B 0016 FFB0 0012 FFDD FFD6 000F FFED FFD2 FFF8 000A FFF3 FFF1 0020 0014 FFE3 001D FFCD FFEC FFAC FFE2 FFF8 001E 0008 FFDD 000E FFEB FFC4 FFB5 0018 0020 0031 0010 FFF7 FFF3 000C FFFD 0009 FFF2 0028 FFFC 0012 FFC9 001F 0024 0002 FFFB FFF4 0020 0059 FFE8 FFEB FFBA 000F FFE4 0003 FFFF FFE6 0044 0011 FFF9 0014 FFD3 000A FFE7 000A FFDF FFD7 FFE5 FFED FFFA 0026 FFCD FFF3 001C 0021 FFCB FFFA 0034 FFC6 FFD6 FFEC FFEE FFD6 FFD2 002F FFDC FFFF 0013 FFD4 FFF3 FFFA 002E FFFD FFE9 0003 001D FFFD 0015 FFD5 FFE9 0004 002D 0006 003D 0002 0023 FFFC FFF2 FFFA FFFA FFD7 FFFF FFE0 FFDA FFCF FFFF FFFD FFD7 0004 002B FFD8 0029 001B 004C 0004 FFF7 0008 FFEF FFD8 FFBA 0034 FFE6 FFFB 002B FFF8 001C 002E FFFC 0005 0004 001F 002A 0040 FFE7 0003 003F FFF0 0021 0018 000B FFD6 0005 FFD4 FFDB FFED FFF6 FFAD FFFF FFE8 FFEB FFEC FFE7 000B FFCF FFF5 0011 0045 FFC6 000B 0032 FFF9 0009 001D 0030 0020 001E 001A 0019 FFD2 FFF4 FFD3 0024 0024 000C FFD9 000F 0018 0023 FFEF 000E 001C 001F 0036 002E FFF1 FFCF 000C 0025 0002 FFC7 000F 0042 000E 000E FFF4 0013 FFDB 0013 FFFE FFF9 FFDE FFD1 0031
